
#include "data.h"

// We need to keep the data array aligned on some architectures.
const float test[25] = {
  0.5, 0. , 1. , 1. , 1. , 1. , 1. , 1. , 1. , 0. , 0. , 0. , 1. ,
  1. , 1. , 1. , 1. , 1. , 1. , 1. , 1. , 0. , 0. , 0. , 1.
};


const unsigned char mi_data[] =  {
  0x1c, 0x00, 0x00, 0x00, 0x54, 0x46, 0x4c, 0x33, 0x00, 0x00, 0x12, 0x00,
  0x1c, 0x00, 0x04, 0x00, 0x08, 0x00, 0x0c, 0x00, 0x10, 0x00, 0x14, 0x00,
  0x00, 0x00, 0x18, 0x00, 0x12, 0x00, 0x00, 0x00, 0x03, 0x00, 0x00, 0x00,
  0x4c, 0x10, 0x00, 0x00, 0xf8, 0x0c, 0x00, 0x00, 0xe0, 0x0c, 0x00, 0x00,
  0x3c, 0x00, 0x00, 0x00, 0x04, 0x00, 0x00, 0x00, 0x01, 0x00, 0x00, 0x00,
  0x0c, 0x00, 0x00, 0x00, 0x08, 0x00, 0x0c, 0x00, 0x04, 0x00, 0x08, 0x00,
  0x08, 0x00, 0x00, 0x00, 0x08, 0x00, 0x00, 0x00, 0x08, 0x00, 0x00, 0x00,
  0x13, 0x00, 0x00, 0x00, 0x6d, 0x69, 0x6e, 0x5f, 0x72, 0x75, 0x6e, 0x74,
  0x69, 0x6d, 0x65, 0x5f, 0x76, 0x65, 0x72, 0x73, 0x69, 0x6f, 0x6e, 0x00,
  0x09, 0x00, 0x00, 0x00, 0x8c, 0x0c, 0x00, 0x00, 0x78, 0x0c, 0x00, 0x00,
  0xfc, 0x0b, 0x00, 0x00, 0xc8, 0x0b, 0x00, 0x00, 0xf4, 0x01, 0x00, 0x00,
  0x50, 0x00, 0x00, 0x00, 0x44, 0x00, 0x00, 0x00, 0x30, 0x00, 0x00, 0x00,
  0x04, 0x00, 0x00, 0x00, 0x26, 0xf4, 0xff, 0xff, 0x04, 0x00, 0x00, 0x00,
  0x10, 0x00, 0x00, 0x00, 0x31, 0x2e, 0x35, 0x2e, 0x30, 0x00, 0x00, 0x00,
  0x00, 0x00, 0x00, 0x00, 0x00, 0x00, 0x00, 0x00, 0x00, 0x00, 0x00, 0x00,
  0x00, 0x00, 0x00, 0x00, 0x00, 0x00, 0x00, 0x00, 0x70, 0xf0, 0xff, 0xff,
  0x00, 0x00, 0x00, 0x00, 0x00, 0x00, 0x00, 0x00, 0x00, 0x00, 0x00, 0x00,
  0x80, 0xf0, 0xff, 0xff, 0x00, 0x00, 0x00, 0x00, 0x66, 0xf4, 0xff, 0xff,
  0x04, 0x00, 0x00, 0x00, 0x90, 0x01, 0x00, 0x00, 0xc4, 0xd0, 0x27, 0xbc,
  0x40, 0xd8, 0xdb, 0xbe, 0xf9, 0xa7, 0x99, 0xbe, 0x41, 0x7f, 0xf0, 0xbe,
  0xbc, 0x2f, 0xb4, 0x3e, 0xf1, 0xce, 0xbd, 0x3e, 0xfa, 0x85, 0x41, 0xbe,
  0xe8, 0x01, 0x49, 0xbe, 0x9e, 0x92, 0xc1, 0x3e, 0xc0, 0x93, 0x55, 0x3e,
  0x5c, 0xf8, 0x11, 0x3b, 0xec, 0x3a, 0x43, 0x3e, 0xfa, 0x52, 0xcb, 0x3e,
  0x58, 0x49, 0xf2, 0xbd, 0x3a, 0x75, 0x1a, 0x3e, 0xa2, 0x0a, 0xbf, 0x3d,
  0x58, 0x7a, 0xea, 0x3d, 0x74, 0x94, 0x02, 0x3e, 0xe4, 0x1f, 0xe1, 0xbe,
  0xff, 0x1d, 0xbe, 0xbe, 0xb2, 0xb9, 0xa4, 0x3e, 0x9e, 0x75, 0x98, 0x3e,
  0x3b, 0x92, 0x38, 0x3f, 0x48, 0xd1, 0x46, 0xbe, 0xee, 0xf1, 0xc2, 0x3e,
  0x6e, 0x74, 0xcc, 0xbe, 0x15, 0x1a, 0x6b, 0x3d, 0x46, 0x18, 0x94, 0xbe,
  0x9a, 0xfb, 0xc0, 0x3e, 0x77, 0xbf, 0xac, 0xbe, 0xee, 0x23, 0x1f, 0xbe,
  0xf0, 0xa4, 0x9b, 0x3d, 0x42, 0x49, 0xa1, 0x3e, 0xf8, 0xf2, 0x50, 0x3f,
  0x23, 0xd4, 0xf7, 0xbd, 0xd9, 0xc0, 0xb2, 0x3e, 0xc8, 0xa3, 0x65, 0xbd,
  0x74, 0x18, 0x97, 0x3e, 0x6c, 0xb3, 0x92, 0xbe, 0xba, 0xca, 0x38, 0xbe,
  0xa3, 0x27, 0xb3, 0xbe, 0xd0, 0x73, 0x9b, 0x3c, 0xa0, 0xd8, 0xfe, 0xbc,
  0x75, 0x26, 0xa8, 0xbd, 0x00, 0x28, 0xaa, 0xbc, 0x7d, 0x64, 0x20, 0xbe,
  0x75, 0x6d, 0xc8, 0xbe, 0x6c, 0xea, 0x1a, 0x3f, 0xa0, 0x2d, 0xe3, 0xbd,
  0xee, 0x14, 0x99, 0x3e, 0x23, 0x67, 0x11, 0xbf, 0x52, 0xee, 0xed, 0x3c,
  0x97, 0x91, 0x35, 0x3f, 0x80, 0x4e, 0xa1, 0xbe, 0x66, 0x73, 0xc4, 0x3e,
  0xdf, 0x4f, 0xb2, 0x3e, 0x04, 0x45, 0x30, 0x3e, 0x6d, 0xee, 0x7f, 0x3f,
  0x5c, 0x4a, 0xf2, 0xbd, 0xd1, 0x8d, 0xe7, 0xbe, 0x07, 0xdc, 0x36, 0xbe,
  0x3a, 0xc9, 0x23, 0xbe, 0x5c, 0x9c, 0xc2, 0x3e, 0x0a, 0x0b, 0xa3, 0x3e,
  0xbe, 0x8e, 0x93, 0xbf, 0xde, 0x4a, 0x19, 0xbe, 0x9c, 0x41, 0x63, 0xbe,
  0x03, 0x95, 0xc1, 0xbe, 0xb7, 0xa4, 0x42, 0x3e, 0x1c, 0x7f, 0xbc, 0xbe,
  0x24, 0xc3, 0x14, 0xbd, 0x86, 0xe2, 0x09, 0xbe, 0x8d, 0x4f, 0x04, 0x3f,
  0xfe, 0x72, 0xdd, 0x3e, 0x51, 0x42, 0xd3, 0xbe, 0xa6, 0xd5, 0xdb, 0xbd,
  0xa3, 0x77, 0xb5, 0x3e, 0xf6, 0xdb, 0x41, 0xbe, 0xea, 0x2c, 0x0c, 0xbe,
  0x74, 0x6a, 0x27, 0x3e, 0xd1, 0x5f, 0x1c, 0x3e, 0xbc, 0x51, 0x17, 0x3e,
  0x79, 0xbd, 0x25, 0xbf, 0x8f, 0x6a, 0x29, 0xbe, 0xd0, 0xd1, 0x19, 0x3f,
  0x2a, 0xea, 0x60, 0x3d, 0xb0, 0x70, 0x3a, 0xbd, 0xd8, 0xff, 0x8e, 0x3d,
  0x68, 0x5c, 0x9f, 0x3e, 0x41, 0x68, 0x8b, 0xbf, 0xd5, 0x7a, 0xa4, 0x3e,
  0xac, 0xa9, 0xa7, 0x3e, 0x54, 0xaa, 0x1f, 0x3e, 0x7d, 0xa9, 0xdf, 0x3c,
  0xca, 0xe9, 0x93, 0xbe, 0xc6, 0x05, 0xde, 0x3d, 0x73, 0x14, 0xd4, 0xbe,
  0x36, 0xc9, 0x97, 0xbf, 0x3e, 0x37, 0x85, 0x3e, 0x00, 0x10, 0xdf, 0xbb,
  0x00, 0x00, 0x00, 0x00, 0x06, 0xf6, 0xff, 0xff, 0x04, 0x00, 0x00, 0x00,
  0xc4, 0x09, 0x00, 0x00, 0x34, 0x51, 0x4b, 0x3e, 0x16, 0x9c, 0x92, 0x3e,
  0xb8, 0x5c, 0x3a, 0xbe, 0xaf, 0x13, 0x3c, 0xbe, 0x12, 0x52, 0x5e, 0x3d,
  0x25, 0xd2, 0x8a, 0x3d, 0xf1, 0x41, 0x16, 0x3e, 0xcd, 0xe8, 0x90, 0xbe,
  0xae, 0xd9, 0x6a, 0x3e, 0xf0, 0x61, 0x14, 0xbd, 0xce, 0xac, 0xa4, 0xbe,
  0x50, 0x66, 0x4c, 0x3e, 0x25, 0x31, 0x06, 0x3e, 0xe6, 0x3f, 0x2f, 0x3e,
  0xd8, 0x07, 0x89, 0xbd, 0x55, 0x98, 0xd7, 0xbd, 0xeb, 0xc9, 0x71, 0xbd,
  0x5f, 0x16, 0x9d, 0x3e, 0x34, 0x3f, 0x90, 0x3e, 0x72, 0x52, 0x63, 0xbe,
  0xed, 0xc0, 0xdd, 0xbe, 0xc8, 0xbc, 0x59, 0xbd, 0x80, 0xbb, 0xd9, 0x3b,
  0x28, 0xd4, 0x89, 0x3e, 0x94, 0x99, 0xa7, 0xbe, 0x32, 0x9c, 0xac, 0xbd,
  0xde, 0x1f, 0xa3, 0x3e, 0xb7, 0x36, 0x63, 0xbd, 0xe1, 0x8c, 0x9e, 0xbd,
  0x5b, 0x6e, 0x7d, 0x3e, 0xdf, 0x40, 0xc1, 0x3d, 0x00, 0xa8, 0xdd, 0xbd,
  0x6f, 0x33, 0x8c, 0xbe, 0xe3, 0x5a, 0xaa, 0x3e, 0x56, 0xdb, 0x91, 0x3e,
  0xc4, 0x12, 0x3e, 0x3e, 0xe9, 0x99, 0xa2, 0xbe, 0xf9, 0x02, 0x9f, 0xbe,
  0x98, 0x05, 0x79, 0xbc, 0x91, 0x8c, 0x81, 0x3c, 0xd1, 0x8c, 0x9a, 0x3e,
  0xfd, 0xe4, 0x01, 0xbe, 0xd9, 0x4c, 0x0b, 0xbe, 0x5a, 0xbb, 0x3d, 0x3e,
  0x91, 0xc3, 0x40, 0x3d, 0xf7, 0xef, 0x37, 0xbe, 0x60, 0x63, 0x1b, 0xbc,
  0x58, 0x99, 0x5d, 0x3e, 0xda, 0x63, 0xa6, 0x3e, 0x77, 0x01, 0x7e, 0xbd,
  0xd4, 0xa2, 0xb8, 0xbe, 0x5c, 0x04, 0x8c, 0xbd, 0x31, 0xd6, 0x49, 0x3c,
  0xf5, 0x10, 0x89, 0x3e, 0xd1, 0x17, 0x9a, 0x3e, 0x50, 0x7a, 0x52, 0x3e,
  0x40, 0xb8, 0x8f, 0xbe, 0x25, 0xd8, 0xa2, 0x3c, 0x7d, 0x25, 0x4d, 0x3e,
  0x9c, 0xf1, 0xf4, 0x3d, 0x38, 0xef, 0x8f, 0xbd, 0x78, 0x82, 0x27, 0xbd,
  0x5f, 0xbf, 0x01, 0xbf, 0xb8, 0x61, 0x39, 0x3e, 0x26, 0x37, 0xdf, 0x3d,
  0xfb, 0xa4, 0xb0, 0xbe, 0x16, 0xd4, 0x48, 0x3c, 0x1d, 0x41, 0xc0, 0xbe,
  0x6b, 0xd5, 0xac, 0xbd, 0x48, 0x0d, 0x41, 0x3f, 0x4f, 0x45, 0x5a, 0x3e,
  0xe0, 0xa7, 0x5a, 0xbe, 0x1c, 0xeb, 0x76, 0x3e, 0xbb, 0xfd, 0x48, 0xbe,
  0xb6, 0x31, 0xde, 0x3b, 0xdb, 0x66, 0xb9, 0xbe, 0xe0, 0x64, 0x9b, 0x3d,
  0x13, 0x34, 0xb4, 0xbd, 0x02, 0x90, 0x11, 0x3e, 0xa6, 0x41, 0xb2, 0x3d,
  0x58, 0xf5, 0xf3, 0xbd, 0xbc, 0xe7, 0x24, 0xbb, 0x45, 0xf4, 0x25, 0xbe,
  0x89, 0xb8, 0xa4, 0x3d, 0xe5, 0xd1, 0x27, 0xbe, 0x58, 0xe2, 0xc2, 0x3d,
  0x8e, 0xe7, 0x1c, 0x3e, 0x1c, 0x57, 0x17, 0xbe, 0x0d, 0x2e, 0xbb, 0x3e,
  0x4d, 0x78, 0x82, 0x3e, 0xfe, 0x7d, 0x98, 0xbe, 0xef, 0x1a, 0x10, 0xbe,
  0x32, 0x05, 0xc2, 0x3e, 0xaa, 0xa0, 0x09, 0x3f, 0xcf, 0x3c, 0x26, 0x3d,
  0x01, 0xca, 0x05, 0xbf, 0xca, 0x9c, 0xf2, 0xbd, 0xf0, 0x26, 0xb1, 0x3d,
  0xca, 0x60, 0xb0, 0xbe, 0xb0, 0x9c, 0x17, 0x3e, 0x24, 0x64, 0x7d, 0xbe,
  0x02, 0xc2, 0xda, 0xbd, 0xba, 0x9e, 0xf5, 0xbd, 0xb8, 0x1d, 0xb1, 0x3e,
  0xe0, 0xfd, 0x87, 0xbe, 0x9e, 0x99, 0xc7, 0xbd, 0xb0, 0xa1, 0x51, 0xbe,
  0x94, 0x92, 0xd0, 0x3d, 0x46, 0xc8, 0x9b, 0xbe, 0x28, 0x7c, 0x94, 0x3d,
  0xbe, 0xa4, 0x6e, 0xbe, 0x36, 0xea, 0x4c, 0xbe, 0x04, 0x75, 0xcc, 0xbd,
  0xec, 0x94, 0x97, 0xbe, 0x50, 0x10, 0x3e, 0x3e, 0x3d, 0x1a, 0x07, 0xbe,
  0x26, 0xb7, 0x48, 0xbe, 0xd0, 0xd8, 0xf4, 0xbc, 0x8c, 0xba, 0x23, 0xbe,
  0x20, 0x56, 0xe1, 0xbc, 0xd0, 0xd5, 0x3a, 0xbd, 0x0c, 0xf2, 0xaf, 0x3e,
  0xc8, 0xaa, 0x66, 0x3e, 0x3e, 0xb9, 0x7e, 0xbe, 0x88, 0xe8, 0x10, 0xbd,
  0x1c, 0x95, 0x1d, 0xbd, 0x92, 0xe7, 0x18, 0x3e, 0x28, 0xd7, 0xee, 0x3d,
  0xec, 0x37, 0x87, 0xbe, 0xf2, 0xd6, 0x62, 0x3d, 0xe8, 0xb8, 0x27, 0x3e,
  0xbd, 0x69, 0xd6, 0xbb, 0x1b, 0xed, 0x11, 0xbd, 0x49, 0xc2, 0xa4, 0x3d,
  0xbc, 0xd5, 0xb6, 0xbd, 0xa0, 0x3a, 0x61, 0x3c, 0x64, 0x13, 0xa5, 0x3d,
  0xbd, 0x7d, 0x40, 0x3e, 0xc3, 0xaa, 0xc9, 0xbd, 0x5f, 0x60, 0x60, 0x3d,
  0x7d, 0xe1, 0x94, 0xbe, 0x21, 0xa7, 0x2f, 0x3e, 0x6c, 0x90, 0x38, 0x3d,
  0xd1, 0x0a, 0x0a, 0x3e, 0xa4, 0xcf, 0x90, 0xbd, 0xe0, 0xde, 0xab, 0x3c,
  0x9b, 0xfe, 0x36, 0xbe, 0x10, 0x45, 0x86, 0xbd, 0x68, 0x42, 0x75, 0x3d,
  0x63, 0x31, 0xb0, 0xbe, 0x7c, 0x0c, 0x4b, 0x3e, 0xdc, 0xc7, 0x52, 0x3e,
  0xe8, 0x2b, 0x43, 0xbe, 0x28, 0x5a, 0x72, 0xbd, 0x80, 0x0f, 0x6e, 0x3d,
  0x43, 0xea, 0xaf, 0xbe, 0x44, 0xa8, 0xb5, 0x3d, 0x5c, 0x8d, 0xab, 0xbe,
  0x18, 0x9e, 0x7a, 0xbd, 0xd4, 0x67, 0x27, 0xbe, 0x54, 0x2d, 0x55, 0x3e,
  0xd0, 0x86, 0xe2, 0xbc, 0x7c, 0x7b, 0xb5, 0x3d, 0x32, 0xe8, 0x79, 0xbe,
  0xb4, 0x57, 0x69, 0xbe, 0x10, 0x14, 0x68, 0x3e, 0x28, 0xe8, 0x76, 0xbd,
  0xf4, 0xe1, 0x4e, 0x3e, 0x49, 0xed, 0x10, 0xbe, 0xe0, 0x39, 0x2c, 0x3d,
  0xb0, 0xf6, 0xd6, 0xbc, 0xa4, 0x5f, 0xb6, 0x3d, 0x7c, 0x3e, 0x3a, 0x3e,
  0x80, 0x25, 0xbe, 0xbb, 0x80, 0x53, 0x78, 0x3c, 0x66, 0xd6, 0x88, 0x3e,
  0x5c, 0x3c, 0x81, 0x3e, 0x5f, 0xf2, 0x4e, 0xbe, 0x30, 0x10, 0x2a, 0x3d,
  0x85, 0xed, 0xd1, 0x3d, 0xb3, 0x1f, 0x02, 0xbf, 0xca, 0x01, 0x2a, 0x3d,
  0x1e, 0xc3, 0x47, 0xbe, 0x98, 0xea, 0x8a, 0x3c, 0x68, 0xaf, 0x0d, 0x3d,
  0xd4, 0x98, 0x92, 0xbd, 0xf0, 0x9f, 0x9f, 0xbc, 0x55, 0xfc, 0xae, 0xbe,
  0x56, 0xfe, 0x0c, 0x3f, 0x3c, 0x98, 0xb8, 0x3e, 0x2a, 0x56, 0x7f, 0xbe,
  0x12, 0xed, 0xc3, 0xbe, 0x3b, 0x98, 0xba, 0xbc, 0x72, 0x6f, 0x0b, 0xbf,
  0xc0, 0x0b, 0x8d, 0x3f, 0xdf, 0x13, 0x7d, 0xbe, 0x2a, 0xb5, 0x8e, 0x3e,
  0x7d, 0x87, 0xad, 0xbe, 0x12, 0x68, 0x1f, 0xbe, 0xd5, 0x69, 0x81, 0x3e,
  0x0d, 0xe6, 0xa3, 0x3e, 0x68, 0x9f, 0x7a, 0x3e, 0x62, 0xed, 0xc9, 0xbc,
  0x7b, 0x3b, 0x0d, 0xbe, 0x6e, 0xe0, 0x89, 0x3e, 0xf7, 0x03, 0x29, 0x3e,
  0x70, 0xe0, 0x45, 0x3e, 0xa8, 0xca, 0x3c, 0xbe, 0x97, 0x78, 0x45, 0xbe,
  0xae, 0x13, 0xa2, 0x3e, 0xf0, 0x67, 0x2e, 0xbe, 0x2c, 0x74, 0x91, 0x3e,
  0xab, 0x7d, 0x8b, 0xbe, 0xa8, 0x89, 0x20, 0xbf, 0xfd, 0xed, 0x89, 0xbd,
  0xe2, 0x7c, 0x8a, 0x3e, 0x27, 0xce, 0x20, 0x3e, 0x24, 0x03, 0xd6, 0xbe,
  0x44, 0xfa, 0xc0, 0xbe, 0x94, 0xba, 0x82, 0x3e, 0xcd, 0xd3, 0x59, 0x3e,
  0xd0, 0x70, 0x76, 0x3d, 0x2c, 0x8e, 0x9f, 0xbd, 0x58, 0x38, 0xdf, 0x3d,
  0xaf, 0x35, 0x1b, 0x3e, 0x7f, 0xcc, 0x1c, 0x3c, 0xfa, 0x3f, 0x84, 0xbe,
  0xd2, 0x5f, 0xde, 0x3d, 0xdb, 0x8c, 0x48, 0x3e, 0xdb, 0xb6, 0x28, 0xbe,
  0x88, 0xad, 0x34, 0xbe, 0xb9, 0xd6, 0xad, 0x3e, 0xa7, 0xd0, 0x51, 0x3e,
  0x68, 0xe2, 0xc8, 0x3d, 0xf0, 0xb1, 0xeb, 0x3d, 0x46, 0xda, 0x54, 0xbe,
  0x26, 0x20, 0x5a, 0xbe, 0x93, 0x7a, 0x42, 0x3e, 0xa2, 0xe1, 0x96, 0xbe,
  0xcf, 0xd3, 0x16, 0x3e, 0x60, 0xaa, 0xe2, 0xbd, 0xc5, 0x2b, 0x52, 0x3e,
  0x97, 0xb2, 0xe3, 0x3e, 0xc6, 0x33, 0x1f, 0x3f, 0xb2, 0x68, 0x36, 0xbf,
  0xbf, 0x56, 0x9d, 0xbe, 0x6c, 0xb6, 0xc2, 0x3d, 0xc8, 0x9f, 0x96, 0x3d,
  0xb0, 0x05, 0xe9, 0xbd, 0x67, 0x9d, 0x15, 0x3e, 0x97, 0x64, 0x39, 0xbe,
  0x63, 0x75, 0x84, 0xbe, 0x23, 0xc9, 0x84, 0xbe, 0x6e, 0xf4, 0x83, 0x3e,
  0xfd, 0xfd, 0x7c, 0x3e, 0x50, 0xf3, 0xc9, 0xbe, 0xd2, 0x20, 0xdc, 0xbd,
  0xcc, 0x6c, 0x33, 0x3d, 0xed, 0xcc, 0x5f, 0x3e, 0x53, 0xd9, 0x17, 0xbe,
  0x32, 0xd7, 0x9a, 0xbe, 0xe0, 0xc9, 0xb1, 0xbd, 0x5f, 0xd8, 0x1b, 0x3e,
  0xd7, 0xc0, 0x79, 0x3e, 0x26, 0xc0, 0xae, 0xbe, 0xfa, 0xcd, 0x4f, 0xbd,
  0xaa, 0x17, 0xa6, 0xbe, 0x52, 0xa5, 0x9b, 0x3c, 0xb4, 0x35, 0x98, 0xbd,
  0x26, 0x9f, 0x83, 0x3e, 0x93, 0xd3, 0x1a, 0xbb, 0xd3, 0x2c, 0xad, 0xbe,
  0x80, 0x80, 0x04, 0xbb, 0x58, 0xd6, 0x36, 0xbd, 0xba, 0xc1, 0xe5, 0x3d,
  0x94, 0x22, 0xd7, 0x3d, 0x76, 0xfd, 0xa5, 0xbe, 0x3e, 0x83, 0x0f, 0x3e,
  0x0b, 0x60, 0x59, 0xbe, 0x48, 0xfb, 0x63, 0xbd, 0x80, 0xbf, 0x70, 0x3e,
  0x2c, 0x53, 0x09, 0x3e, 0xce, 0x0f, 0x15, 0xbe, 0xf8, 0xc6, 0x93, 0x3e,
  0xf3, 0x79, 0x02, 0xbe, 0xac, 0xa7, 0x93, 0x3e, 0x40, 0x50, 0x27, 0xbe,
  0x80, 0x5a, 0xd1, 0xbc, 0xa0, 0x51, 0xac, 0x3c, 0x80, 0x87, 0x54, 0xbc,
  0x7d, 0x48, 0x06, 0xbe, 0xf2, 0xcd, 0x2b, 0xbe, 0xbe, 0x14, 0x83, 0xbe,
  0x30, 0x26, 0x31, 0xbd, 0x8c, 0x20, 0x74, 0x3e, 0xb9, 0x99, 0x42, 0xbe,
  0x86, 0x56, 0x5e, 0xbe, 0x10, 0x80, 0x17, 0x3e, 0x64, 0xee, 0xa0, 0xbd,
  0x47, 0xa6, 0x3b, 0xbe, 0xe0, 0x92, 0x7b, 0x3c, 0x98, 0xde, 0x48, 0xbe,
  0x1a, 0xc8, 0x1b, 0xbe, 0xe4, 0xea, 0x2b, 0x3e, 0x1a, 0xde, 0x99, 0x3e,
  0x48, 0x5d, 0x33, 0x3d, 0xba, 0xd4, 0xd6, 0xbd, 0x83, 0xd9, 0x3f, 0xbe,
  0xb4, 0x07, 0x9b, 0xbe, 0xc8, 0x65, 0xcc, 0x3d, 0x1c, 0x6b, 0x9b, 0x3d,
  0xe8, 0xe7, 0x57, 0xbe, 0xcf, 0x65, 0x2a, 0xbe, 0x60, 0x00, 0x2b, 0xbd,
  0x68, 0x8c, 0x0b, 0xbd, 0x3c, 0x4a, 0xa7, 0x3e, 0xe0, 0xc5, 0x87, 0xbe,
  0x18, 0x91, 0x28, 0xbd, 0x44, 0x4d, 0xeb, 0x3d, 0xd0, 0x88, 0x8e, 0xbe,
  0x7a, 0x50, 0xe7, 0xbd, 0x2a, 0xb1, 0x83, 0x3e, 0xe7, 0x45, 0xa0, 0xbe,
  0x10, 0x0f, 0xa5, 0xbd, 0xb0, 0x49, 0xd3, 0xbc, 0x14, 0x73, 0xc6, 0x3d,
  0xa8, 0x4a, 0x54, 0x3d, 0x9c, 0x88, 0x27, 0xbe, 0x18, 0x4a, 0xad, 0x3e,
  0xa0, 0xb4, 0x36, 0xbe, 0xb7, 0x60, 0x3a, 0xbe, 0x90, 0xb7, 0x22, 0x3e,
  0x4e, 0xcd, 0x02, 0xbe, 0x62, 0x8a, 0x91, 0xbe, 0xb0, 0x05, 0x5b, 0x3d,
  0x2e, 0x39, 0x8f, 0x3e, 0xd0, 0x88, 0xe8, 0x3d, 0x4c, 0xa7, 0xaf, 0xbe,
  0xb4, 0x33, 0xa3, 0xbd, 0x4c, 0xd1, 0x80, 0x3d, 0x2f, 0xca, 0x87, 0xbe,
  0xf0, 0x28, 0xc9, 0x3d, 0x98, 0xf0, 0x4c, 0x3e, 0x9a, 0x2a, 0x98, 0x3e,
  0xdc, 0x50, 0x9c, 0xbe, 0xa0, 0xe0, 0x4f, 0x3c, 0xf2, 0xce, 0xa5, 0xbe,
  0x48, 0xd2, 0x71, 0xbd, 0xf5, 0x65, 0x0c, 0xbe, 0x78, 0x60, 0x71, 0xbe,
  0xe1, 0x63, 0xc9, 0xbe, 0xba, 0xf0, 0x94, 0x3e, 0x4d, 0x96, 0x73, 0x3d,
  0xc5, 0x4a, 0x8b, 0xbd, 0xfe, 0xfc, 0x02, 0xbf, 0xdf, 0x90, 0x0f, 0xbe,
  0x93, 0x1b, 0x12, 0xbe, 0x94, 0x79, 0x83, 0x3d, 0x58, 0xc3, 0xeb, 0xbd,
  0xac, 0x46, 0xe1, 0x3d, 0x60, 0xe3, 0x8d, 0x3e, 0xec, 0xcf, 0x12, 0x3e,
  0x28, 0xe7, 0x23, 0x3e, 0x48, 0xc2, 0x46, 0xbe, 0xd5, 0x9f, 0x78, 0x3e,
  0xf1, 0xe4, 0x53, 0xbe, 0x33, 0xca, 0x63, 0x3e, 0xce, 0x42, 0x92, 0x3e,
  0x9f, 0x4d, 0xcd, 0x3e, 0x88, 0xff, 0x8f, 0x3f, 0x2b, 0x26, 0x1d, 0xbf,
  0xd0, 0x05, 0x51, 0x3d, 0xb8, 0xc5, 0x4d, 0xbd, 0xc9, 0xd9, 0x0e, 0xbe,
  0xf8, 0xf0, 0x28, 0xbe, 0x9f, 0xeb, 0xbe, 0x3d, 0xe0, 0xd1, 0x63, 0x3e,
  0x34, 0x1b, 0x21, 0x3e, 0xda, 0x64, 0x59, 0xbb, 0x2c, 0x5e, 0x91, 0x3e,
  0xe0, 0xaf, 0xeb, 0x3d, 0xc3, 0x72, 0xe2, 0x3d, 0xf9, 0x3f, 0x40, 0xbd,
  0x67, 0x85, 0xa1, 0xbc, 0x44, 0xda, 0x67, 0x3e, 0x9a, 0xb7, 0x75, 0xbe,
  0x98, 0x92, 0x41, 0x3e, 0x97, 0x04, 0xc5, 0x3d, 0x33, 0xbd, 0xf2, 0xbb,
  0x09, 0x64, 0xea, 0xbd, 0x04, 0xd4, 0x0a, 0x3e, 0x45, 0xa2, 0xc8, 0xbd,
  0xfb, 0x17, 0xbb, 0xbd, 0x1b, 0xe2, 0x56, 0xbe, 0x53, 0x02, 0x59, 0x3d,
  0x2b, 0xe2, 0xaa, 0xbe, 0x91, 0xc6, 0xa1, 0xbe, 0xc0, 0x1c, 0x8c, 0x3e,
  0x24, 0xcf, 0x84, 0xbe, 0xd0, 0xc6, 0x90, 0xbe, 0xe7, 0x73, 0x6d, 0xbe,
  0x2e, 0x30, 0x81, 0xbe, 0xec, 0xb1, 0x89, 0x3e, 0x11, 0x92, 0xa4, 0xbe,
  0xb8, 0xa0, 0x01, 0x3d, 0xd2, 0xa1, 0x67, 0xbe, 0x16, 0xe5, 0xda, 0xbd,
  0x4c, 0x93, 0x5e, 0x3e, 0x64, 0xc1, 0x9e, 0xbe, 0xb6, 0xc8, 0x87, 0xbe,
  0x1b, 0x94, 0x81, 0xbe, 0x9c, 0x5b, 0xa8, 0xbd, 0x94, 0x8a, 0x71, 0x3e,
  0x53, 0x49, 0x62, 0xbe, 0x0c, 0x96, 0x7c, 0x3e, 0xf8, 0x01, 0x76, 0x3d,
  0x40, 0xd7, 0x2f, 0x3c, 0xdd, 0x4b, 0x8b, 0xbe, 0x44, 0x4d, 0x35, 0xbe,
  0x77, 0x6f, 0xa6, 0xbe, 0xe6, 0xde, 0xa7, 0xbe, 0xd4, 0x96, 0x3a, 0x3e,
  0x50, 0x83, 0x50, 0x3e, 0xc0, 0x98, 0x5f, 0x3e, 0x18, 0xff, 0x58, 0x3e,
  0x0a, 0x53, 0x30, 0xbe, 0x61, 0x9b, 0x94, 0xbe, 0x08, 0x72, 0x39, 0xbd,
  0x40, 0xfb, 0xc5, 0xbb, 0xb2, 0x3a, 0x86, 0xbe, 0x39, 0xed, 0x8f, 0xbe,
  0x28, 0xfe, 0xa5, 0x3e, 0xc0, 0xc4, 0xee, 0xbc, 0x28, 0xaf, 0x06, 0x3d,
  0x9f, 0x06, 0x1f, 0xbe, 0xe2, 0x81, 0xa8, 0xbe, 0x12, 0x35, 0x41, 0xbe,
  0xc0, 0x6f, 0x98, 0x3d, 0xe0, 0xbd, 0x85, 0x3d, 0xed, 0xaf, 0xa0, 0xbe,
  0x07, 0xc3, 0x0f, 0xbe, 0xd0, 0x29, 0x6f, 0x3e, 0xd2, 0x44, 0x27, 0xbe,
  0x68, 0x5e, 0x4e, 0xbd, 0x62, 0xa4, 0xa5, 0x3e, 0x42, 0x31, 0x42, 0xbe,
  0x20, 0x9e, 0x35, 0xbc, 0x10, 0xa6, 0xfc, 0x3d, 0xc9, 0x23, 0x34, 0xbe,
  0x60, 0x26, 0xc5, 0x3c, 0xc1, 0x08, 0x59, 0xbe, 0x13, 0xd8, 0x2c, 0xbe,
  0x91, 0x13, 0x3a, 0xbd, 0x2f, 0xf7, 0x8e, 0x3d, 0xd2, 0x6c, 0xaa, 0xbd,
  0x2e, 0xea, 0x5c, 0xbe, 0x22, 0xe9, 0x67, 0xbe, 0x1b, 0xa5, 0x33, 0x3e,
  0x4c, 0x16, 0x66, 0x3e, 0x1f, 0x68, 0x15, 0xbe, 0xc8, 0x61, 0x27, 0x3e,
  0x84, 0x88, 0xa7, 0xbd, 0x4a, 0x65, 0x8c, 0xbe, 0x22, 0xc8, 0x8d, 0x3d,
  0xf0, 0x50, 0xa1, 0x3e, 0x9e, 0xc2, 0x20, 0x3e, 0x84, 0xc4, 0x6c, 0x3d,
  0x4b, 0xbc, 0xda, 0x3d, 0xca, 0x2a, 0x78, 0xbc, 0x24, 0xad, 0x2c, 0x3e,
  0x2d, 0x9e, 0xbe, 0x3d, 0x69, 0x77, 0x7c, 0xbe, 0x46, 0x7a, 0x9f, 0x3e,
  0x48, 0x37, 0xaa, 0xbe, 0x05, 0xce, 0x71, 0xbe, 0x14, 0x0c, 0x8c, 0xbe,
  0xf4, 0xf2, 0xaf, 0x3e, 0xd0, 0xaa, 0xf2, 0xbd, 0x7a, 0x24, 0xa2, 0x3e,
  0xd0, 0x32, 0x68, 0x3e, 0x48, 0xec, 0x30, 0x3e, 0xc0, 0xe2, 0x06, 0xbe,
  0x10, 0xc6, 0x33, 0xbe, 0x3c, 0x09, 0x21, 0xbe, 0xfe, 0x42, 0x80, 0x3e,
  0x80, 0x96, 0x57, 0x3d, 0xff, 0xee, 0x9b, 0xbe, 0x79, 0xd6, 0x9c, 0xbe,
  0x10, 0xc1, 0x97, 0x3e, 0x84, 0xc6, 0x9c, 0xbe, 0xc0, 0x18, 0x41, 0x3c,
  0x5d, 0xdb, 0x3b, 0xbe, 0x18, 0x40, 0x6c, 0xbd, 0x3a, 0xfe, 0x15, 0x3e,
  0x3e, 0x1f, 0x3b, 0xbe, 0xbc, 0xeb, 0x60, 0x3e, 0xcc, 0x89, 0x9f, 0x3e,
  0x80, 0x4b, 0x81, 0x3b, 0xbe, 0x5c, 0x55, 0xbe, 0x69, 0x9d, 0x56, 0xbe,
  0x06, 0xe4, 0x14, 0x3e, 0xb0, 0x5a, 0x02, 0xbe, 0x9d, 0x9c, 0x38, 0xbe,
  0x50, 0x07, 0x73, 0x3d, 0x4e, 0x94, 0x48, 0xbc, 0x66, 0x9f, 0xda, 0xbd,
  0xf4, 0x3a, 0xa7, 0xbe, 0x72, 0x80, 0x71, 0x3e, 0xd9, 0x5a, 0x9d, 0x3d,
  0xc0, 0xda, 0xb7, 0xbd, 0x20, 0x79, 0xb1, 0xbd, 0x88, 0x11, 0x9a, 0x3e,
  0xbf, 0xe0, 0x3d, 0xbd, 0xd1, 0x4a, 0x5e, 0x3d, 0xcf, 0x43, 0x73, 0xbe,
  0x83, 0x4d, 0x18, 0xbd, 0xf7, 0x82, 0x70, 0xbd, 0x3a, 0xaa, 0x2d, 0xbb,
  0x49, 0xfb, 0x55, 0x3e, 0x57, 0x5c, 0xbb, 0xbe, 0x25, 0x26, 0x42, 0x3e,
  0x30, 0x85, 0xf1, 0x3c, 0xfa, 0x6b, 0x0d, 0x3e, 0x87, 0x23, 0x96, 0xbe,
  0x12, 0x7a, 0x6f, 0x3e, 0x46, 0x07, 0x87, 0xbe, 0x4c, 0x1c, 0x9d, 0x3d,
  0x40, 0x9a, 0xeb, 0xbb, 0x5a, 0x20, 0x1b, 0x3e, 0xcc, 0x61, 0xe9, 0x3d,
  0xd0, 0xc2, 0xf4, 0x3c, 0x3c, 0x99, 0x97, 0x3d, 0x00, 0x38, 0xde, 0xbc,
  0x98, 0x35, 0x75, 0xbd, 0xc8, 0xce, 0x5e, 0xbd, 0xb8, 0x4e, 0x70, 0x3d,
  0x04, 0x28, 0xb1, 0x3e, 0x60, 0x79, 0x3e, 0xbd, 0x97, 0x4b, 0x29, 0xbe,
  0x68, 0x6d, 0xa3, 0x3e, 0xe0, 0x14, 0x59, 0xbc, 0x4e, 0x24, 0x68, 0xbe,
  0xf5, 0xf8, 0x0f, 0xbe, 0xdc, 0x36, 0xa6, 0x3d, 0x90, 0x3d, 0x39, 0x3d,
  0x94, 0x70, 0x80, 0x3e, 0x5a, 0x9e, 0x86, 0x3e, 0xb8, 0xd6, 0xf2, 0x3d,
  0xa4, 0xc2, 0xc3, 0xbd, 0x25, 0xd1, 0x87, 0xbe, 0xc4, 0x70, 0x27, 0x3e,
  0xa2, 0xa5, 0x22, 0xbe, 0x8d, 0x38, 0xe2, 0x3d, 0xec, 0x5f, 0x48, 0x3e,
  0xb7, 0x87, 0xe2, 0xbe, 0xf6, 0x04, 0x0e, 0xbe, 0x32, 0x1e, 0x8e, 0xbd,
  0x18, 0xb3, 0xac, 0x3e, 0x67, 0x05, 0x9e, 0x3e, 0x58, 0xe2, 0x3d, 0x3e,
  0x30, 0x28, 0xfd, 0xbd, 0x10, 0xb2, 0xe2, 0xbc, 0x08, 0x90, 0x89, 0x3e,
  0xe4, 0x1e, 0x5e, 0x3e, 0x35, 0xf6, 0xb3, 0x3e, 0x95, 0x5f, 0xcc, 0xbe,
  0x00, 0x0c, 0x33, 0xbe, 0x01, 0x9d, 0x06, 0xbf, 0xd8, 0x72, 0x60, 0x3d,
  0x1e, 0xfd, 0x30, 0x3e, 0xb7, 0x36, 0xd1, 0xbe, 0xd6, 0x52, 0xac, 0x3e,
  0x00, 0x21, 0x36, 0x3d, 0x12, 0x63, 0x10, 0x3e, 0x5f, 0x9c, 0x91, 0x3e,
  0x00, 0x3a, 0x7d, 0x3a, 0x4c, 0xf8, 0xdd, 0xbd, 0x93, 0x8a, 0x8e, 0xbe,
  0xd8, 0xa5, 0x61, 0xbe, 0xfd, 0xb1, 0x5a, 0xbe, 0x34, 0x70, 0x7d, 0x3e,
  0x80, 0xcc, 0x30, 0xbb, 0x85, 0x60, 0x6f, 0xbe, 0x08, 0x9d, 0x2e, 0x3e,
  0x26, 0xa4, 0x8c, 0x3e, 0x5c, 0x0e, 0x9a, 0x3e, 0x20, 0xb2, 0x4d, 0x3e,
  0x72, 0x7f, 0x46, 0xbe, 0x4c, 0x30, 0xad, 0xbd, 0x90, 0x83, 0x93, 0xbc,
  0x74, 0x51, 0x34, 0x3e, 0x62, 0xec, 0x60, 0xbe, 0x2e, 0xc8, 0xfe, 0xbd,
  0x28, 0x13, 0x14, 0x3d, 0x00, 0x4b, 0x95, 0xbd, 0xe0, 0xe0, 0xaf, 0xbd,
  0x88, 0x0a, 0x25, 0xbd, 0x0c, 0xfd, 0x9c, 0x3e, 0xac, 0x21, 0xd6, 0xbd,
  0x37, 0xba, 0x34, 0xbe, 0xfc, 0xf9, 0xbe, 0xbd, 0xf1, 0x6f, 0x0b, 0xbe,
  0xe0, 0xd3, 0xa4, 0xbe, 0xa2, 0x3e, 0x00, 0x3e, 0xe0, 0xc6, 0x5c, 0xbc,
  0x4a, 0x6c, 0xe3, 0xbd, 0x70, 0x39, 0xa9, 0x3e, 0x9f, 0x2d, 0x0d, 0xbe,
  0x76, 0x63, 0xa6, 0x3e, 0xb0, 0x05, 0x03, 0x3d, 0x19, 0xad, 0xa1, 0xbe,
  0x82, 0xc0, 0x89, 0x3e, 0xaf, 0xd3, 0x57, 0xbe, 0xea, 0x84, 0x87, 0xbe,
  0x8e, 0x26, 0x5a, 0xbe, 0xec, 0xff, 0xdb, 0x3d, 0xbd, 0x2d, 0xa4, 0xbe,
  0x20, 0x13, 0x84, 0x3e, 0xdc, 0xfd, 0xc9, 0xbd, 0x20, 0xf4, 0x18, 0xbd,
  0xc6, 0xda, 0x9b, 0x3e, 0x48, 0xc6, 0x7d, 0x3d, 0x54, 0x66, 0x95, 0xbd,
  0x50, 0x3e, 0x1f, 0x3d, 0xa4, 0x85, 0x6b, 0xbe, 0xd6, 0xff, 0xff, 0xff,
  0x04, 0x00, 0x00, 0x00, 0x10, 0x00, 0x00, 0x00, 0x23, 0xb0, 0x54, 0x3d,
  0xed, 0xfd, 0xdb, 0x3d, 0x5e, 0x9e, 0x08, 0x3f, 0x5e, 0xab, 0xe8, 0x3e,
  0x00, 0x00, 0x00, 0x00, 0x00, 0x00, 0x00, 0x00, 0x00, 0x00, 0x00, 0x00,
  0x00, 0x00, 0x06, 0x00, 0x08, 0x00, 0x04, 0x00, 0x06, 0x00, 0x00, 0x00,
  0x04, 0x00, 0x00, 0x00, 0x64, 0x00, 0x00, 0x00, 0x95, 0x85, 0x5b, 0xbd,
  0xf7, 0xb6, 0x00, 0xbc, 0x59, 0x8e, 0x94, 0x39, 0xba, 0x20, 0x55, 0xbc,
  0x00, 0x00, 0x00, 0x00, 0xb5, 0x89, 0x1f, 0xbd, 0x00, 0x00, 0x00, 0x00,
  0x37, 0x88, 0x70, 0xbd, 0x55, 0x84, 0x65, 0xbd, 0x3c, 0x83, 0x42, 0xbb,
  0xf2, 0x9c, 0x6e, 0xbd, 0x00, 0x00, 0x00, 0x00, 0x00, 0x00, 0x00, 0x00,
  0x00, 0x00, 0x00, 0x00, 0xc4, 0xc7, 0x39, 0xbd, 0x46, 0xc6, 0xbb, 0xbc,
  0x00, 0x00, 0x00, 0x00, 0x00, 0x00, 0x00, 0x00, 0x27, 0xbe, 0x39, 0xbc,
  0x00, 0x00, 0x00, 0x00, 0xd8, 0x1a, 0x7a, 0xbd, 0x00, 0x00, 0x00, 0x00,
  0xca, 0x3e, 0x37, 0xbd, 0x00, 0x00, 0x00, 0x00, 0x00, 0x00, 0x00, 0x00,
  0x00, 0x00, 0x00, 0x00, 0x00, 0x00, 0x00, 0x00, 0xa0, 0xfc, 0xff, 0xff,
  0x00, 0x00, 0x00, 0x00, 0x00, 0x00, 0x00, 0x00, 0x00, 0x00, 0x00, 0x00,
  0xb0, 0xfc, 0xff, 0xff, 0x00, 0x00, 0x00, 0x00, 0x00, 0x00, 0x00, 0x00,
  0x00, 0x00, 0x00, 0x00, 0x0f, 0x00, 0x00, 0x00, 0x4d, 0x4c, 0x49, 0x52,
  0x20, 0x43, 0x6f, 0x6e, 0x76, 0x65, 0x72, 0x74, 0x65, 0x64, 0x2e, 0x00,
  0x01, 0x00, 0x00, 0x00, 0x14, 0x00, 0x00, 0x00, 0x00, 0x00, 0x0e, 0x00,
  0x18, 0x00, 0x04, 0x00, 0x08, 0x00, 0x0c, 0x00, 0x10, 0x00, 0x14, 0x00,
  0x0e, 0x00, 0x00, 0x00, 0xc8, 0x00, 0x00, 0x00, 0xbc, 0x00, 0x00, 0x00,
  0xb0, 0x00, 0x00, 0x00, 0x14, 0x00, 0x00, 0x00, 0x04, 0x00, 0x00, 0x00,
  0x04, 0x00, 0x00, 0x00, 0x6d, 0x61, 0x69, 0x6e, 0x00, 0x00, 0x00, 0x00,
  0x02, 0x00, 0x00, 0x00, 0x58, 0x00, 0x00, 0x00, 0x14, 0x00, 0x00, 0x00,
  0x00, 0x00, 0x0e, 0x00, 0x14, 0x00, 0x00, 0x00, 0x08, 0x00, 0x0c, 0x00,
  0x07, 0x00, 0x10, 0x00, 0x0e, 0x00, 0x00, 0x00, 0x00, 0x00, 0x00, 0x08,
  0x18, 0x00, 0x00, 0x00, 0x0c, 0x00, 0x00, 0x00, 0x04, 0x00, 0x00, 0x00,
  0x40, 0xfd, 0xff, 0xff, 0x01, 0x00, 0x00, 0x00, 0x06, 0x00, 0x00, 0x00,
  0x03, 0x00, 0x00, 0x00, 0x05, 0x00, 0x00, 0x00, 0x04, 0x00, 0x00, 0x00,
  0x02, 0x00, 0x00, 0x00, 0x00, 0x00, 0x0e, 0x00, 0x16, 0x00, 0x00, 0x00,
  0x08, 0x00, 0x0c, 0x00, 0x07, 0x00, 0x10, 0x00, 0x0e, 0x00, 0x00, 0x00,
  0x00, 0x00, 0x00, 0x08, 0x24, 0x00, 0x00, 0x00, 0x18, 0x00, 0x00, 0x00,
  0x0c, 0x00, 0x00, 0x00, 0x00, 0x00, 0x06, 0x00, 0x08, 0x00, 0x07, 0x00,
  0x06, 0x00, 0x00, 0x00, 0x00, 0x00, 0x00, 0x01, 0x01, 0x00, 0x00, 0x00,
  0x05, 0x00, 0x00, 0x00, 0x03, 0x00, 0x00, 0x00, 0x00, 0x00, 0x00, 0x00,
  0x03, 0x00, 0x00, 0x00, 0x01, 0x00, 0x00, 0x00, 0x01, 0x00, 0x00, 0x00,
  0x06, 0x00, 0x00, 0x00, 0x01, 0x00, 0x00, 0x00, 0x00, 0x00, 0x00, 0x00,
  0x07, 0x00, 0x00, 0x00, 0x20, 0x02, 0x00, 0x00, 0xb0, 0x01, 0x00, 0x00,
  0x44, 0x01, 0x00, 0x00, 0x00, 0x01, 0x00, 0x00, 0xb8, 0x00, 0x00, 0x00,
  0x4c, 0x00, 0x00, 0x00, 0x04, 0x00, 0x00, 0x00, 0x10, 0xfe, 0xff, 0xff,
  0x34, 0x00, 0x00, 0x00, 0x07, 0x00, 0x00, 0x00, 0x1c, 0x00, 0x00, 0x00,
  0x14, 0x00, 0x00, 0x00, 0x04, 0x00, 0x00, 0x00, 0x02, 0x00, 0x00, 0x00,
  0xff, 0xff, 0xff, 0xff, 0x04, 0x00, 0x00, 0x00, 0xfc, 0xfd, 0xff, 0xff,
  0x08, 0x00, 0x00, 0x00, 0x49, 0x64, 0x65, 0x6e, 0x74, 0x69, 0x74, 0x79,
  0x00, 0x00, 0x00, 0x00, 0x02, 0x00, 0x00, 0x00, 0x01, 0x00, 0x00, 0x00,
  0x04, 0x00, 0x00, 0x00, 0x54, 0xfe, 0xff, 0xff, 0x58, 0x00, 0x00, 0x00,
  0x06, 0x00, 0x00, 0x00, 0x1c, 0x00, 0x00, 0x00, 0x14, 0x00, 0x00, 0x00,
  0x04, 0x00, 0x00, 0x00, 0x02, 0x00, 0x00, 0x00, 0xff, 0xff, 0xff, 0xff,
  0x19, 0x00, 0x00, 0x00, 0x40, 0xfe, 0xff, 0xff, 0x2e, 0x00, 0x00, 0x00,
  0x73, 0x65, 0x71, 0x75, 0x65, 0x6e, 0x74, 0x69, 0x61, 0x6c, 0x2f, 0x64,
  0x65, 0x6e, 0x73, 0x65, 0x2f, 0x52, 0x65, 0x6c, 0x75, 0x3b, 0x73, 0x65,
  0x71, 0x75, 0x65, 0x6e, 0x74, 0x69, 0x61, 0x6c, 0x2f, 0x64, 0x65, 0x6e,
  0x73, 0x65, 0x2f, 0x42, 0x69, 0x61, 0x73, 0x41, 0x64, 0x64, 0x00, 0x00,
  0x02, 0x00, 0x00, 0x00, 0x01, 0x00, 0x00, 0x00, 0x19, 0x00, 0x00, 0x00,
  0x22, 0xff, 0xff, 0xff, 0x34, 0x00, 0x00, 0x00, 0x05, 0x00, 0x00, 0x00,
  0x0c, 0x00, 0x00, 0x00, 0x04, 0x00, 0x00, 0x00, 0x98, 0xfe, 0xff, 0xff,
  0x19, 0x00, 0x00, 0x00, 0x73, 0x65, 0x71, 0x75, 0x65, 0x6e, 0x74, 0x69,
  0x61, 0x6c, 0x2f, 0x64, 0x65, 0x6e, 0x73, 0x65, 0x5f, 0x31, 0x2f, 0x4d,
  0x61, 0x74, 0x4d, 0x75, 0x6c, 0x00, 0x00, 0x00, 0x02, 0x00, 0x00, 0x00,
  0x04, 0x00, 0x00, 0x00, 0x19, 0x00, 0x00, 0x00, 0x66, 0xff, 0xff, 0xff,
  0x30, 0x00, 0x00, 0x00, 0x04, 0x00, 0x00, 0x00, 0x0c, 0x00, 0x00, 0x00,
  0x04, 0x00, 0x00, 0x00, 0xdc, 0xfe, 0xff, 0xff, 0x17, 0x00, 0x00, 0x00,
  0x73, 0x65, 0x71, 0x75, 0x65, 0x6e, 0x74, 0x69, 0x61, 0x6c, 0x2f, 0x64,
  0x65, 0x6e, 0x73, 0x65, 0x2f, 0x4d, 0x61, 0x74, 0x4d, 0x75, 0x6c, 0x00,
  0x02, 0x00, 0x00, 0x00, 0x19, 0x00, 0x00, 0x00, 0x19, 0x00, 0x00, 0x00,
  0xa6, 0xff, 0xff, 0xff, 0x4c, 0x00, 0x00, 0x00, 0x03, 0x00, 0x00, 0x00,
  0x0c, 0x00, 0x00, 0x00, 0x04, 0x00, 0x00, 0x00, 0x1c, 0xff, 0xff, 0xff,
  0x32, 0x00, 0x00, 0x00, 0x73, 0x65, 0x71, 0x75, 0x65, 0x6e, 0x74, 0x69,
  0x61, 0x6c, 0x2f, 0x64, 0x65, 0x6e, 0x73, 0x65, 0x5f, 0x31, 0x2f, 0x42,
  0x69, 0x61, 0x73, 0x41, 0x64, 0x64, 0x2f, 0x52, 0x65, 0x61, 0x64, 0x56,
  0x61, 0x72, 0x69, 0x61, 0x62, 0x6c, 0x65, 0x4f, 0x70, 0x2f, 0x72, 0x65,
  0x73, 0x6f, 0x75, 0x72, 0x63, 0x65, 0x00, 0x00, 0x01, 0x00, 0x00, 0x00,
  0x04, 0x00, 0x00, 0x00, 0x00, 0x00, 0x0e, 0x00, 0x14, 0x00, 0x04, 0x00,
  0x00, 0x00, 0x08, 0x00, 0x0c, 0x00, 0x10, 0x00, 0x0e, 0x00, 0x00, 0x00,
  0x4c, 0x00, 0x00, 0x00, 0x02, 0x00, 0x00, 0x00, 0x0c, 0x00, 0x00, 0x00,
  0x04, 0x00, 0x00, 0x00, 0x84, 0xff, 0xff, 0xff, 0x30, 0x00, 0x00, 0x00,
  0x73, 0x65, 0x71, 0x75, 0x65, 0x6e, 0x74, 0x69, 0x61, 0x6c, 0x2f, 0x64,
  0x65, 0x6e, 0x73, 0x65, 0x2f, 0x42, 0x69, 0x61, 0x73, 0x41, 0x64, 0x64,
  0x2f, 0x52, 0x65, 0x61, 0x64, 0x56, 0x61, 0x72, 0x69, 0x61, 0x62, 0x6c,
  0x65, 0x4f, 0x70, 0x2f, 0x72, 0x65, 0x73, 0x6f, 0x75, 0x72, 0x63, 0x65,
  0x00, 0x00, 0x00, 0x00, 0x01, 0x00, 0x00, 0x00, 0x19, 0x00, 0x00, 0x00,
  0x14, 0x00, 0x18, 0x00, 0x04, 0x00, 0x00, 0x00, 0x08, 0x00, 0x0c, 0x00,
  0x10, 0x00, 0x00, 0x00, 0x00, 0x00, 0x14, 0x00, 0x14, 0x00, 0x00, 0x00,
  0x38, 0x00, 0x00, 0x00, 0x01, 0x00, 0x00, 0x00, 0x20, 0x00, 0x00, 0x00,
  0x18, 0x00, 0x00, 0x00, 0x04, 0x00, 0x00, 0x00, 0x02, 0x00, 0x00, 0x00,
  0xff, 0xff, 0xff, 0xff, 0x19, 0x00, 0x00, 0x00, 0x04, 0x00, 0x04, 0x00,
  0x04, 0x00, 0x00, 0x00, 0x0b, 0x00, 0x00, 0x00, 0x64, 0x65, 0x6e, 0x73,
  0x65, 0x5f, 0x69, 0x6e, 0x70, 0x75, 0x74, 0x00, 0x02, 0x00, 0x00, 0x00,
  0x01, 0x00, 0x00, 0x00, 0x19, 0x00, 0x00, 0x00, 0x01, 0x00, 0x00, 0x00,
  0x10, 0x00, 0x00, 0x00, 0x00, 0x00, 0x0a, 0x00, 0x0c, 0x00, 0x07, 0x00,
  0x00, 0x00, 0x08, 0x00, 0x0a, 0x00, 0x00, 0x00, 0x00, 0x00, 0x00, 0x09,
  0x03, 0x00, 0x00, 0x00
};
const int mi_data_len = 4240;
